TRT-100300-EntropyCalibration2
images: 3bf80000
/model.0/conv/Conv_output_0: 3dabf623
/model.0/act/Sigmoid_output_0: 3c010a14
/model.0/act/Mul_output_0: 3d9f43b5
/model.1/conv/Conv_output_0: 3e54133a
/model.1/act/Sigmoid_output_0: 3c010a14
/model.1/act/Mul_output_0: 3e0eda43
/model.2/cv1/conv/Conv_output_0: 3e2ae3eb
/model.2/cv1/act/Sigmoid_output_0: 3c010a14
/model.2/cv1/act/Mul_output_0: 3db630a3
/model.23/Mul_6_output_0: 3dd3eaff
/model.23/cv3.1/cv3.1.1/cv3.1.1.1/act/Mul_output_0: 3d51349b
/model.23/cv3.2/cv3.2.1/cv3.2.1.1/act/Mul_output_0: 3dca9c97
/model.23/Concat_28_output_0: 3e810a14
/model.22/m.0/m/m.1/cv1/act/Sigmoid_output_0: 3c00cc1f
/model.22/m.0/m/m.0/cv2/act/Sigmoid_output_0: 3c00faa0
/model.2/Split_output_0: 3dc861bb
/model.23/cv4.2/cv4.2.1/act/Mul_output_0: 3d95d755
/model.23/Add_8_output_0: 3e810a14
/model.23/Reshape_4_output_0: 3e216d8c
/model.2/Split_output_1: 3d7a9077
/model.2/m.0/cv1/conv/Conv_output_0: 3c963ef8
/model.2/m.0/cv1/act/Sigmoid_output_0: 3c067ba2
/model.2/m.0/cv1/act/Mul_output_0: 3c8895a5
/model.2/m.0/cv2/conv/Conv_output_0: 3dc8b6b7
/model.2/m.0/cv2/act/Sigmoid_output_0: 3c010a14
/model.2/m.0/cv2/act/Mul_output_0: 3e0fc5af
/model.2/m.0/Add_output_0: 3db4f582
/model.2/Concat_output_0: 3dc7a9ac
/model.2/cv2/conv/Conv_output_0: 3e37d267
/model.2/cv2/act/Sigmoid_output_0: 3c010a14
/model.2/cv2/act/Mul_output_0: 3cc657d6
/model.3/conv/Conv_output_0: 3d3e9a32
/model.3/act/Sigmoid_output_0: 3bff4cd8
/model.3/act/Mul_output_0: 3ccf8124
/model.4/cv1/conv/Conv_output_0: 3d082180
/model.4/cv1/act/Sigmoid_output_0: 3bfcc386
/model.4/cv1/act/Mul_output_0: 3cc1a21e
/model.23/Concat_6_output_0: 3e216d8c
/model.23/cv3.1/cv3.1.2/Conv_output_0: 3e71d5a2
/model.23/Range_2_output_0: 3e9d4449
/model.22/m.0/m/m.0/cv1/conv/Conv_output_0: 3d66ebb4
ONNXTRT_ShapeShuffle_249_output: 3c010a14
/model.23/cv3.1/cv3.1.1/cv3.1.1.1/conv/Conv_output_0: 3e1f2035
/model.4/Split_output_0: 3ca5d5db
/model.23/ConstantOfShape_1_output_0: 0
/model.22/m.0/cv2/act/Mul_output_0: 3d004f44
/model.22/m.0/cv1/act/Sigmoid_output_0: 3beb25b7
/model.4/Split_output_1: 3ca49156
/model.4/m.0/cv1/conv/Conv_output_0: 3ccb7e9b
/model.4/m.0/cv1/act/Sigmoid_output_0: 3c111e34
/model.4/m.0/cv1/act/Mul_output_0: 3c902dad
/model.4/m.0/cv2/conv/Conv_output_0: 3d2879de
/model.4/m.0/cv2/act/Sigmoid_output_0: 3c015367
/model.4/m.0/cv2/act/Mul_output_0: 3d0ff1c4
/model.4/m.0/Add_output_0: 3d2e951a
/model.4/Concat_output_0: 3d255c34
/model.4/cv2/conv/Conv_output_0: 3d3beac9
/model.4/cv2/act/Sigmoid_output_0: 3c03f141
/model.4/cv2/act/Mul_output_0: 3c5d62d0
/model.5/conv/Conv_output_0: 3d331d0f
/model.5/act/Sigmoid_output_0: 3c008c27
/model.5/act/Mul_output_0: 3c9c0631
/model.6/cv1/conv/Conv_output_0: 3d3f5c2e
/model.6/cv1/act/Sigmoid_output_0: 3c0151ae
/model.6/cv1/act/Mul_output_0: 3cebf18e
/model.22/m.0/cv2/conv/Conv_output_0: 3d55a005
/model.23/cv3.1/cv3.1.1/cv3.1.1.0/act/Sigmoid_output_0: 3c021168
/model.23/Add_4_output_0: 3e9f4871
/model.22/Split_output_1: 3cb32b21
/model.23/Slice_3_output_0: 3d99dad3
/model.23/Mul_7_output_0: 40a91379
/model.6/Split_output_0: 3cd445fc
/model.23/cv2.2/cv2.2.2/Conv_output_0: 3dd29d89
/model.23/cv3.2/cv3.2.0/cv3.2.0.0/conv/Conv_output_0: 3d3cbf56
ONNXTRT_Broadcast_579_output: 3e810a14
/model.6/Split_output_1: 3cebf18e
/model.6/m.0/cv1/conv/Conv_output_0: 3cdf89ca
/model.6/m.0/cv2/conv/Conv_output_0: 3d681b39
/model.6/m.0/cv1/act/Sigmoid_output_0: 3c01e4f6
/model.6/m.0/cv2/act/Sigmoid_output_0: 3c019323
/model.6/m.0/cv1/act/Mul_output_0: 3cce7eda
/model.6/m.0/cv2/act/Mul_output_0: 3d46b68b
/model.6/m.0/m/m.0/cv1/conv/Conv_output_0: 3d9b5311
/model.6/m.0/m/m.0/cv1/act/Sigmoid_output_0: 3c021403
/model.6/m.0/m/m.0/cv1/act/Mul_output_0: 3d0295a4
/model.6/m.0/m/m.0/cv2/conv/Conv_output_0: 3d8383bb
/model.6/m.0/m/m.0/cv2/act/Sigmoid_output_0: 3c04f959
/model.6/m.0/m/m.0/cv2/act/Mul_output_0: 3d0218d5
/model.6/m.0/m/m.0/Add_output_0: 3d5c7261
/model.6/m.0/m/m.1/cv1/conv/Conv_output_0: 3d68c8fd
/model.6/m.0/m/m.1/cv1/act/Sigmoid_output_0: 3c0a5d5e
/model.6/m.0/m/m.1/cv1/act/Mul_output_0: 3cc16429
/model.6/m.0/m/m.1/cv2/conv/Conv_output_0: 3dc19782
/model.6/m.0/m/m.1/cv2/act/Sigmoid_output_0: 3c0111f7
/model.6/m.0/m/m.1/cv2/act/Mul_output_0: 3d919972
/model.6/m.0/m/m.1/Add_output_0: 3dcdd815
/model.6/m.0/Concat_output_0: 3d710adf
/model.6/m.0/cv3/conv/Conv_output_0: 3da03973
/model.6/m.0/cv3/act/Sigmoid_output_0: 3c00e4c9
/model.6/m.0/cv3/act/Mul_output_0: 3d121626
/model.6/Concat_output_0: 3cebf18e
/model.6/cv2/conv/Conv_output_0: 3d8659a2
/model.6/cv2/act/Sigmoid_output_0: 3c0838ca
/model.6/cv2/act/Mul_output_0: 3c800672
/model.7/conv/Conv_output_0: 3d8e5b9c
/model.7/act/Sigmoid_output_0: 3c04b135
/model.7/act/Mul_output_0: 3cc3e210
/model.8/cv1/conv/Conv_output_0: 3d8f18e9
/model.8/cv1/act/Sigmoid_output_0: 3c075e8d
/model.8/cv1/act/Mul_output_0: 3d026671
ONNXTRT_Broadcast_426_output: 3b810a14
/model.22/cv2/act/Mul_output_0: 3ce98d67
/model.23/Constant_84_output_0_output: 3c810a14
(Unnamed Layer* 540) [Constant]_output: 0
/model.23/Range_5_output_0: 3e193bf8
/model.22/m.0/m/m.1/cv2/act/Sigmoid_output_0: 3c01107f
/model.8/Split_output_0: 3ce90a83
ONNXTRT_ShapeShuffle_423_output: 3c010a14
/model.23/dfl/Reshape_1_output_0: 3dfe4294
/model.23/cv3.1/cv3.1.1/cv3.1.1.0/conv/Conv_output_0: 3d8751d8
/model.8/Split_output_1: 3d026671
/model.8/m.0/cv1/conv/Conv_output_0: 3d69b16a
/model.8/m.0/cv2/conv/Conv_output_0: 3d7cd92b
/model.8/m.0/cv1/act/Sigmoid_output_0: 3c0b2529
/model.8/m.0/cv2/act/Sigmoid_output_0: 3c0213db
/model.8/m.0/cv1/act/Mul_output_0: 3ce9d93f
/model.8/m.0/cv2/act/Mul_output_0: 3d268d8f
/model.8/m.0/m/m.0/cv1/conv/Conv_output_0: 3d9a19b5
/model.8/m.0/m/m.0/cv1/act/Sigmoid_output_0: 3c011050
/model.8/m.0/m/m.0/cv1/act/Mul_output_0: 3d143656
/model.8/m.0/m/m.0/cv2/conv/Conv_output_0: 3d9bd38d
/model.8/m.0/m/m.0/cv2/act/Sigmoid_output_0: 3c011198
/model.8/m.0/m/m.0/cv2/act/Mul_output_0: 3d002989
/model.8/m.0/m/m.0/Add_output_0: 3d8b5f1b
/model.8/m.0/m/m.1/cv1/conv/Conv_output_0: 3dca969c
/model.8/m.0/m/m.1/cv1/act/Sigmoid_output_0: 3c021421
/model.8/m.0/m/m.1/cv1/act/Mul_output_0: 3d1428eb
/model.8/m.0/m/m.1/cv2/conv/Conv_output_0: 3e111d28
/model.8/m.0/m/m.1/cv2/act/Sigmoid_output_0: 3c010a14
/model.8/m.0/m/m.1/cv2/act/Mul_output_0: 3d975959
/model.8/m.0/m/m.1/Add_output_0: 3e0c4a1d
/model.8/m.0/Concat_output_0: 3dc05d67
/model.8/m.0/cv3/conv/Conv_output_0: 3dc51922
/model.8/m.0/cv3/act/Sigmoid_output_0: 3c011121
/model.8/m.0/cv3/act/Mul_output_0: 3d43a7db
/model.8/Concat_output_0: 3d026671
/model.8/cv2/conv/Conv_output_0: 3da496b6
/model.8/cv2/act/Sigmoid_output_0: 3c00ef5f
/model.8/cv2/act/Mul_output_0: 3d143ac5
/model.9/cv1/conv/Conv_output_0: 3d811fac
/model.9/cv1/act/Sigmoid_output_0: 3c00a9f0
/model.9/cv1/act/Mul_output_0: 3d651ad4
/model.9/m/MaxPool_output_0: 3d651ad4
/model.9/m_1/MaxPool_output_0: 3d651ad4
/model.9/m_2/MaxPool_output_0: 3d651ad4
/model.9/Concat_output_0: 3d8f5f4d
/model.9/cv2/conv/Conv_output_0: 3d968061
/model.9/cv2/act/Sigmoid_output_0: 3c00bfb0
/model.9/cv2/act/Mul_output_0: 3c666d9e
/model.10/cv1/conv/Conv_output_0: 3da9aca1
/model.10/cv1/act/Sigmoid_output_0: 3c01112d
/model.10/cv1/act/Mul_output_0: 3d138bb6
/model.23/Mul_5_output_0: 40a0f72f
/model.23/Slice_output_0: 3dfa3e62
/model.23/Transpose_output_0: 3f204a85
/model.23/cv3.2/cv3.2.0/cv3.2.0.1/act/Sigmoid_output_0: 3c02140b
/model.23/cv4.2/cv4.2.2/Conv_output_0: 3da6c036
/model.22/m.0/m/m.1/cv2/conv/Conv_output_0: 3db7a57a
/model.10/Split_output_0: 3d138bb6
ONNXTRT_Broadcast_387_output: 3c810a14
ONNXTRT_Broadcast_264_output: 3b810a14
ONNXTRT_ShapeShuffle_259_output: 3c010a14
/model.10/Split_output_1: 3d28d888
/model.22/m.0/cv3/conv/Conv_output_0: 3db8cb87
/model.23/cv4.1/cv4.1.2/Conv_output_0: 3d81e6ed
/model.10/m/m.0/attn/qkv/conv/Conv_output_0: 3d8af0b2
ONNXTRT_ShapeShuffle_413_output: 3c010a14
/model.23/Sub_1_output_0: 3e688db5
/model.23/Slice_1_output_0: 3dfc0c1c
/model.23/Reshape_18_output_0: 3e1d4449
/model.23/cv3.1/cv3.1.1/cv3.1.1.1/act/Sigmoid_output_0: 3c010a14
/model.23/Squeeze_2_output_0_output: 3e810a14
/model.22/m.0/m/m.0/cv1/act/Mul_output_0: 3cb373ae
/model.23/cv3.1/cv3.1.0/cv3.1.0.1/act/Mul_output_0: 3cc164b8
/model.22/cv1/act/Sigmoid_output_0: 3c00848d
/model.22/m.0/cv1/act/Mul_output_0: 3c0786bf
/model.23/Reshape_2_output_0: 3da6c036
/model.23/Unsqueeze_11_output_0: 3e9f4871
/model.23/cv3.2/cv3.2.1/cv3.2.1.1/conv/Conv_output_0: 3e12cc2c
ONNXTRT_ShapeShuffle_267_output: 0
ONNXTRT_Broadcast_272_output: 3e010a14
/model.10/m/m.0/attn/Reshape_output_0: 3d8af0b2
/model.23/Add_5_output_0: 3e010a14
/model.23/Concat_27_output_0: 3f204a85
/model.23/Reshape_14_output_0: 3e9f4871
/model.23/cv4.2/cv4.2.1/conv/Conv_output_0: 3de9376d
/model.23/Reshape_19_output_0: 3e1d4449
/model.22/m.0/m/m.0/cv2/act/Mul_output_0: 3d01ac4e
/model.10/m/m.0/attn/Split_output_0: 3d49bb0b
/model.23/cv2.2/cv2.2.0/act/Sigmoid_output_0: 3c01085b
/model.23/Concat_15_output_0: 3f204a85
/model.23/Add_3_output_0: 3e9f4871
/model.10/m/m.0/attn/Split_output_1: 3d7132c4
/model.23/Unsqueeze_16_output_0: 3f204a85
/model.23/Reshape_10_output_0: 3f204a85
/model.23/cv3.2/cv3.2.1/cv3.2.1.0/act/Sigmoid_output_0: 3c081f66
/model.10/m/m.0/attn/Split_output_2: 3d9378e8
/model.10/m/m.0/attn/Transpose_output_0: 3d49bb0b
/model.10/m/m.0/attn/Reshape_2_output_0: 3d9378e8
/model.10/m/m.0/attn/MatMul_output_0: 3f3651bc
/model.10/m/m.0/attn/pe/conv/Conv_output_0: 3d72e47a
/model.10/m/m.0/attn/Constant_6_output_0_output: 3ab67d3d
ONNXTRT_Broadcast_output: 3ab67d3d
/model.10/m/m.0/attn/Mul_1_output_0: 3e00eb51
/model.23/Reshape_13_output_0: 3e9f4871
/model.22/cv1/act/Mul_output_0: 3cea9ce7
/model.10/m/m.0/attn/Transpose_1_output_0: 3a1ab4ab
/model.10/m/m.0/attn/MatMul_1_output_0: 3d79b98e
/model.10/m/m.0/attn/Reshape_1_output_0: 3d79b98e
/model.10/m/m.0/attn/Add_output_0: 3d46c375
/model.10/m/m.0/attn/proj/conv/Conv_output_0: 3d405211
/model.10/m/m.0/Add_output_0: 3d913ace
/model.10/m/m.0/ffn/ffn.0/conv/Conv_output_0: 3d8719e0
/model.10/m/m.0/ffn/ffn.0/act/Sigmoid_output_0: 3c009ea5
/model.10/m/m.0/ffn/ffn.0/act/Mul_output_0: 3cb18bbb
/model.10/m/m.0/ffn/ffn.1/conv/Conv_output_0: 3d14d306
/model.10/m/m.0/Add_1_output_0: 3d8d15c2
/model.10/Concat_output_0: 3d44902c
/model.10/cv2/conv/Conv_output_0: 3d893947
/model.10/cv2/act/Sigmoid_output_0: 3c00c92d
/model.10/cv2/act/Mul_output_0: 3cc29214
/model.11/Resize_output_0: 3cc29214
/model.12/Concat_output_0: 3c800672
/model.13/cv1/conv/Conv_output_0: 3d812639
/model.13/cv1/act/Sigmoid_output_0: 3c00d349
/model.13/cv1/act/Mul_output_0: 3cd1d3a2
/model.23/cv2.2/cv2.2.0/act/Mul_output_0: 3d289f0c
/model.22/m.0/m/m.1/cv1/conv/Conv_output_0: 3d871ea1
/model.23/Sigmoid_output_0: 3bf2706a
/model.22/cv1/conv/Conv_output_0: 3d889828
/model.23/cv4.2/cv4.2.1/act/Sigmoid_output_0: 3c075eb1
/model.23/cv2.1/cv2.1.1/act/Sigmoid_output_0: 3c010a14
/model.13/Split_output_0: 3d0033f8
/model.23/Expand_3_output_0: 3e9f4871
/model.23/Reshape_22_output_0: 40a91379
/model.22/m.0/m/m.0/cv1/act/Sigmoid_output_0: 3c011427
/model.13/Split_output_1: 3c91f0e4
/model.13/m.0/cv1/conv/Conv_output_0: 3d80bc5c
/model.13/m.0/cv1/act/Sigmoid_output_0: 3c00e6d0
/model.13/m.0/cv1/act/Mul_output_0: 3cb291f8
/model.13/m.0/cv2/conv/Conv_output_0: 3dd218de
/model.13/m.0/cv2/act/Sigmoid_output_0: 3c011220
/model.13/m.0/cv2/act/Mul_output_0: 3d4373bf
/model.13/m.0/Add_output_0: 3da3d6a2
/model.13/Concat_output_0: 3d24da6e
/model.13/cv2/conv/Conv_output_0: 3d862f1e
/model.13/cv2/act/Sigmoid_output_0: 3c00c839
/model.13/cv2/act/Mul_output_0: 3c905b2a
/model.14/Resize_output_0: 3c905b2a
/model.15/Concat_output_0: 3c318587
/model.16/cv1/conv/Conv_output_0: 3d74f505
/model.16/cv1/act/Sigmoid_output_0: 3c010069
/model.16/cv1/act/Mul_output_0: 3cb18900
/model.23/Range_4_output_0: 3e193bf8
/model.22/m.0/Concat_output_0: 3d6ac8b7
/model.23/cv2.1/cv2.1.2/Conv_output_0: 3dd505ae
/model.23/Expand_2_output_0: 3e9f4871
/model.22/cv2/act/Sigmoid_output_0: 3c00e768
/model.23/cv3.2/cv3.2.0/cv3.2.0.1/conv/Conv_output_0: 3dcee3ce
/model.16/Split_output_0: 3ce6a139
/model.23/ConstantOfShape_2_output_0: 0
/model.23/cv2.2/cv2.2.1/act/Sigmoid_output_0: 3c010a14
/model.22/m.0/cv2/act/Sigmoid_output_0: 3c00bec5
/model.16/Split_output_1: 3c7fa2c1
/model.16/m.0/cv1/conv/Conv_output_0: 3d81e1c2
/model.16/m.0/cv1/act/Sigmoid_output_0: 3c01116d
/model.16/m.0/cv1/act/Mul_output_0: 3ce99005
/model.16/m.0/cv2/conv/Conv_output_0: 3da93c77
/model.16/m.0/cv2/act/Sigmoid_output_0: 3c0111f8
/model.16/m.0/cv2/act/Mul_output_0: 3d27cece
/model.16/m.0/Add_output_0: 3d8d60b6
/model.16/Concat_output_0: 3d1271da
/model.16/cv2/conv/Conv_output_0: 3dab5059
/model.16/cv2/act/Sigmoid_output_0: 3c0111fa
/model.16/cv2/act/Mul_output_0: 3cecaa36
/model.17/conv/Conv_output_0: 3d8a7d4e
/model.23/Range_3_output_0: 3e9d4449
/model.23/Concat_4_output_0: 3d84cbf2
/model.23/cv4.0/cv4.0.0/conv/Conv_output_0: 3de5db6e
/model.23/cv2.0/cv2.0.0/conv/Conv_output_0: 3d6f15b3
/model.23/cv3.0/cv3.0.0/cv3.0.0.0/conv/Conv_output_0: 3d000852
/model.17/act/Sigmoid_output_0: 3c010d68
/model.23/cv3.2/cv3.2.1/cv3.2.1.0/act/Mul_output_0: 3d63bf83
/model.23/cv4.0/cv4.0.0/act/Sigmoid_output_0: 3c010a14
/model.23/cv2.0/cv2.0.0/act/Sigmoid_output_0: 3c00b9bf
/model.23/cv3.0/cv3.0.0/cv3.0.0.0/act/Sigmoid_output_0: 3c0376a9
/model.17/act/Mul_output_0: 3ceb6116
/model.23/cv4.0/cv4.0.0/act/Mul_output_0: 3d408d38
/model.23/cv4.1/cv4.1.1/act/Mul_output_0: 3d6cd01c
/model.23/cv2.0/cv2.0.0/act/Mul_output_0: 3ca652ef
/model.23/cv3.0/cv3.0.0/cv3.0.0.0/act/Mul_output_0: 3d44c223
/model.18/Concat_output_0: 3cc461aa
/model.23/cv4.0/cv4.0.1/conv/Conv_output_0: 3ddf637b
/model.22/m.0/m/m.1/cv2/act/Mul_output_0: 3d6797ee
ONNXTRT_Broadcast_565_output: 3b810a14
/model.23/Squeeze_1_output_0_output: 3e010a14
/model.23/cv2.0/cv2.0.1/conv/Conv_output_0: 3e3818e2
/model.23/cv3.0/cv3.0.0/cv3.0.0.1/conv/Conv_output_0: 3d242599
/model.22/m.0/cv3/act/Mul_output_0: 3d126688
/model.22/m.0/m/m.1/cv1/act/Mul_output_0: 3cd542a3
/model.23/cv4.2/cv4.2.0/act/Mul_output_0: 3d414027
/model.19/cv1/conv/Conv_output_0: 3d94434b
/model.23/cv4.0/cv4.0.1/act/Sigmoid_output_0: 3c011220
/model.23/cv2.0/cv2.0.1/act/Sigmoid_output_0: 3c010a14
/model.23/cv3.0/cv3.0.0/cv3.0.0.1/act/Sigmoid_output_0: 3c006126
/model.19/cv1/act/Sigmoid_output_0: 3c00bb64
/model.23/cv4.0/cv4.0.1/act/Mul_output_0: 3d6d91bb
/model.23/cv2.0/cv2.0.1/act/Mul_output_0: 3dc230c9
/model.23/cv3.0/cv3.0.0/cv3.0.0.1/act/Mul_output_0: 3cb31778
/model.19/cv1/act/Mul_output_0: 3cd5ef30
/model.23/cv4.0/cv4.0.2/Conv_output_0: 3d56a8d5
/model.23/cv2.0/cv2.0.2/Conv_output_0: 3dbe6866
/model.23/cv3.0/cv3.0.1/cv3.0.1.0/conv/Conv_output_0: 3d542914
/model.22/m.0/m/m.0/cv2/conv/Conv_output_0: 3d8d7ef7
/model.23/Unsqueeze_10_output_0: 3e9f4871
/model.23/cv3.2/cv3.2.0/cv3.2.0.0/act/Sigmoid_output_0: 3c02141f
/model.23/Concat_20_output_0: 3e9f4871
/model.23/Reshape_5_output_0: 3e24d5a3
/model.22/m.0/m/m.0/Add_output_0: 3d670bc1
/model.19/Split_output_0: 3cd5ef30
/model.22/m.0/m/m.1/Add_output_0: 3da9b970
/model.23/Sigmoid_1_output_0: 3c00fbf7
/model.23/Unsqueeze_7_output_0: 3f204a85
/model.19/Split_output_1: 3c91ea51
/model.23/Reshape_output_0: 3d56a8d5
/model.23/cv3.0/cv3.0.1/cv3.0.1.0/act/Sigmoid_output_0: 3c04cfc3
/model.19/m.0/cv1/conv/Conv_output_0: 3d81d3f6
/model.23/cv3.0/cv3.0.1/cv3.0.1.0/act/Mul_output_0: 3d200ffc
/model.19/m.0/cv1/act/Sigmoid_output_0: 3c00e26d
/model.23/cv3.0/cv3.0.1/cv3.0.1.1/conv/Conv_output_0: 3daea9b5
/model.19/m.0/cv1/act/Mul_output_0: 3d00a2e5
/model.23/cv3.0/cv3.0.1/cv3.0.1.1/act/Sigmoid_output_0: 3c010a14
/model.19/m.0/cv2/conv/Conv_output_0: 3da80e48
/model.23/cv3.0/cv3.0.1/cv3.0.1.1/act/Mul_output_0: 3d709a19
/model.19/m.0/cv2/act/Sigmoid_output_0: 3c00f033
/model.23/cv3.0/cv3.0.2/Conv_output_0: 3e2213fb
/model.19/m.0/cv2/act/Mul_output_0: 3d10790a
/model.23/Concat_5_output_0: 3e0ec51c
/model.19/m.0/Add_output_0: 3d8e2adc
/model.23/Concat_11_output_0: 3e1621fa
/model.23/cv3.2/cv3.2.1/cv3.2.1.1/act/Sigmoid_output_0: 3c010a14
/model.19/Concat_output_0: 3d120aea
ONNXTRT_Broadcast_428_output: 3b810a14
/model.23/Div_1_output_0: 3f20d865
/model.23/dfl/Reshape_output_0: 3dce6042
/model.19/cv2/conv/Conv_output_0: 3d858172
/model.23/Add_11_output_0: 3fa0d865
/model.23/cv3.1/cv3.1.1/cv3.1.1.0/act/Mul_output_0: 3d4396ef
/model.23/Add_10_output_0: 3f2ebb5f
/model.23/Expand_4_output_0: 3e1d4449
/model.19/cv2/act/Sigmoid_output_0: 3c00c5af
/model.23/cv2.2/cv2.2.0/conv/Conv_output_0: 3dbbac77
/model.23/Sub_output_0: 3f1fcecc
/model.23/Constant_23_output_0_output: 0
/model.23/Constant_24_output_0_output: 3c010a14
/model.22/m.0/cv1/conv/Conv_output_0: 3d12799e
ONNXTRT_Broadcast_438_output: 3e810a14
/model.23/Reshape_1_output_0: 3d81e6ed
/model.22/cv2/conv/Conv_output_0: 3dacaaf3
/model.23/Unsqueeze_13_output_0: 3e1d4449
/model.22/Split_output_0: 3cea9ce7
/model.23/Reshape_21_output_0: 3d84cbf2
/model.23/Range_output_0: 3f1f4871
ONNXTRT_ShapeShuffle_153_output: 3c010a14
/model.23/Concat_31_output_0: 40a91379
/model.23/Add_6_output_0: 3e1d4449
/model.23/cv2.1/cv2.1.1/act/Mul_output_0: 3e1daf7a
/model.22/Concat_output_0: 3cea9ce7
/model.23/cv4.2/cv4.2.0/act/Sigmoid_output_0: 3c00ef9f
ONNXTRT_Broadcast_581_output: 3c810a14
/model.23/dfl/Transpose_output_0: 3dce6042
/model.23/Range_1_output_0: 3f1f4871
ONNXTRT_ShapeShuffle_163_output: 3c010a14
ONNXTRT_Broadcast_589_output: 3e810a14
/model.19/cv2/act/Mul_output_0: 3cc35b5e
/model.23/Reshape_3_output_0: 3e0ec51c
/model.23/Constant_25_output_0_output: 3b810a14
ONNXTRT_Broadcast_167_output: 3b810a14
/model.23/Add_output_0: 3f204a85
ONNXTRT_Broadcast_169_output: 3b810a14
/model.23/Add_1_output_0: 3f204a85
/model.22/m.0/cv3/act/Sigmoid_output_0: 3c00dea9
/model.23/Split_1_output_1: 3e5b280a
/model.20/conv/Conv_output_0: 3d84a6e7
/model.23/cv4.1/cv4.1.0/conv/Conv_output_0: 3de8fb68
/model.23/cv2.1/cv2.1.0/conv/Conv_output_0: 3d9787dc
/model.23/cv3.1/cv3.1.0/cv3.1.0.0/conv/Conv_output_0: 3d4d22f6
(Unnamed Layer* 399) [Constant]_output: 0
ONNXTRT_ShapeShuffle_172_output: 0
/model.23/ConstantOfShape_output_0: 0
/model.23/cv3.2/cv3.2.1/cv3.2.1.0/conv/Conv_output_0: 3dae9125
/model.23/Sub_2_output_0: 3f1f4871
/model.23/Concat_29_output_0: 3f20d865
/model.23/dfl/Softmax_output: 3bdb435d
/model.23/Reshape_8_output_0: 3f204a85
/model.23/Reshape_9_output_0: 3f204a85
/model.20/act/Sigmoid_output_0: 3c00ce4c
/model.23/cv4.1/cv4.1.0/act/Sigmoid_output_0: 3c00ecdc
/model.23/cv2.1/cv2.1.0/act/Sigmoid_output_0: 3c00da5a
/model.23/cv3.1/cv3.1.0/cv3.1.0.0/act/Sigmoid_output_0: 3c061776
/model.23/Squeeze_output_0_output: 3d810a14
ONNXTRT_Broadcast_177_output: 3d810a14
/model.23/Add_2_output_0: 3d810a14
/model.23/dfl/Softmax_output_0: 3bdb435d
/model.20/act/Mul_output_0: 3d0fdde6
/model.23/cv4.1/cv4.1.0/act/Mul_output_0: 3d26e824
/model.23/cv2.1/cv2.1.0/act/Mul_output_0: 3ca6b1a7
/model.23/cv3.1/cv3.1.0/cv3.1.0.0/act/Mul_output_0: 3d13c8ae
/model.23/cv3.2/cv3.2.0/cv3.2.0.0/act/Mul_output_0: 3cd27bfe
/model.23/Slice_2_output_0: 3d53eaff
(Unnamed Layer* 741) [Constant]_output: 0
/model.23/cv4.1/cv4.1.1/act/Sigmoid_output_0: 3c0111fb
/model.23/dfl/conv/Conv_output_0: 3dfe4294
/model.23/cv3.1/cv3.1.0/cv3.1.0.1/act/Sigmoid_output_0: 3c00936a
/model.23/Add_7_output_0: 3e1d4449
/model.23/cv2.2/cv2.2.1/conv/Conv_output_0: 3e80b1a7
ONNXTRT_ShapeShuffle_431_output: 0
/model.23/cv3.2/cv3.2.0/cv3.2.0.1/act/Mul_output_0: 3d114db5
/model.23/Expand_output_0: 3f204a85
/model.23/Concat_7_output_0: 3e24d5a3
/model.23/Expand_5_output_0: 3e1d4449
/model.23/Unsqueeze_14_output_0: 3e1d4449
output0: 40a91379
/model.23/Reshape_15_output_0: 3e9f4871
/model.23/cv3.2/cv3.2.2/Conv_output_0: 3e871e94
/model.23/cv2.2/cv2.2.1/act/Mul_output_0: 3dcf2f32
ONNXTRT_Broadcast_572_output: 3f1f4871
/model.23/Concat_25_output_0: 3e1d4449
/model.23/Reshape_20_output_0: 3e1d4449
/model.23/Expand_1_output_0: 3f204a85
/model.21/Concat_output_0: 3c9002fd
/model.23/cv4.1/cv4.1.1/conv/Conv_output_0: 3dca6b51
/model.23/cv2.1/cv2.1.1/conv/Conv_output_0: 3e55f05c
/model.23/cv3.1/cv3.1.0/cv3.1.0.1/conv/Conv_output_0: 3d44a456
/model.23/Transpose_1_output_0: 3e810a14
/model.23/cv4.2/cv4.2.0/conv/Conv_output_0: 3dab02b9
ONNXTRT_Broadcast_262_output: 3b810a14
/model.23/Split_1_output_0: 3dce6042
/model.23/Add_12_output_0: 3f21a780
/model.23/Unsqueeze_8_output_0: 3f204a85
